#version: gec-bpe-1
e Ġ
d Ġ
. Ġ
t Ġ
t h
Ċ Ċ
s Ġ
y Ġ
e r
. ĊĊ
Ġ s
a n
i n
e dĠ
w a
o u
th eĠ
h eĠ
l l
t o
h e
a r
a Ġ
wa sĠ
a i
e n
a m
l o
Ġ theĠ
.Ġ T
h a
.ĊĊ "
" Ġs
in g
.Ġ "
ai dĠ
, Ġ
er Ġ
an dĠ
o m
" ĊĊ
i sĠ
.Ġ H
"Ġs aidĠ
o n
n o
o r
.Ġ S
I Ġ
k edĠ
i t
ll Ġ
e d
to Ġ
a tĠ
y ou
.ĠH eĠ
p Ġ
i g
s t
r e
a y
w Ġ
, "ĠsaidĠ
.ĠS heĠ
. "ĊĊ
m a
k Ġ
l e
o Ġ
i r
ing Ġ
w i
v er
P i
he yĠ
e l
l dĠ
no tĠ
r i
u tĠ
i l
n Ġ
e s
o o
p p
I tĠ
.ĊĊ T
l i
S am
n e
o w
.ĠT heĠ
r a
" Ġ
lo o
an Ġ
.ĠT heyĠ
c h
l eĠ
o f
er eĠ
i tĠ
n dĠ
B utĠ
ha dĠ
b e
.Ġ ItĠ
you Ġ
d i
h isĠ
u n
a s
a Ġs
e th
M i
loo kedĠ
s e
ver yĠ
he l
it t
' sĠ
th Ġ
b ig
s a
d ay
th e
s h
m e
h erĠ
m Ġ
b a
v eĠ
f el
ri en
ig h
fel tĠ
ha pp
Y ou
Pi pĠ
di dĠ
e ll
f rien
You Ġ
en Ġ
p l
wi thĠ
f or
.Ġ" IĠ
ou ldĠ
ha tĠ
itt leĠ
o th
k eĠ
to o
in Ġ
c ar
d eĠ
.ĊĊT heĠ
am eĠ
.Ġ ButĠ
a t
an d
w ereĠ
k e
a yĠ
he ll
d ow
ai d
s i
r o
he nĠ
! "ĠsaidĠ
ar eĠ
t t
frien d
en tĠ
Pi p
big Ġ
m yĠ
l ittleĠ
lo w
c k
h i
g a
.ĠItĠ wasĠ
in ĠtheĠ
a ll
an t
v edĠ
s tĠ
.Ġ A
l y
l Ġ
d e
ma deĠ
wa t
om eĠ
hel p
R u
c ameĠ
b yĠ
! Ġ
on Ġ
o x
b ir
ou ndĠ
w or
heĠ s
R o
.ĊĊ" IĠ
u r
s oĠ
to ĠtheĠ
n eĠ
g eth
? "Ġ
didĠ notĠ
wa r
w entĠ
S hell
i c
b r
g o
r om
to geth
t a
m il
s eĠ
g h
day ,Ġ
O neĠ
h er
in dĠ
t i
as kedĠ
Sam Ġ
wa l
f e
T heĠ
om e
! "ĊĊ
h o
th atĠ
ma llĠ
M a
of Ġ
e sĠ
happ y
b o
ou n
ou tĠ
an kĠ
am Ġ
igh t
c ouldĠ
g oo
om eth
t re
f u
?"Ġ askedĠ
Ma x
edĠ toĠ
.ĊĊ" T
ar d
t r
L il
m or
n yĠ
for Ġ
.ĊĊ A
Mi lo
W eĠ
u p
the yĠ
m i
wi llĠ
wal kedĠ
h ankĠ
b u
F ox
ou gh
edĠ theĠ
ll i
, "Ġ
no w
c kĠ
re a
oth erĠ
an tĠ
heĠs aid
on eĠ
es tĠ
togeth er
s atĠ
b b
c anĠ
g Ġ
h ereĠ
a llĠ
l a
d o
s car
e t
Y es
c o
B en
B ell
Shell yĠ
oun d
f oundĠ
ne wĠ
b ra
e p
.Ġ" YouĠ
.ĊĊ OneĠ
wa y
u pĠ
on ĠtheĠ
v e
p e
m o
in d
lookedĠ atĠ
.ĊĊ S
w ant
p a
! ĊĊ
e tĠ
li keĠ
f i
oth er
f low
d ayĠ
to Ġs
? "ĊĊ
pl ay
he ar
r Ġ
war mĠ
hel pĠ
a ga
ometh ingĠ
aĠs mallĠ
go tĠ
r y
.ĠH isĠ
dow n
.ĠA ndĠ
aĠ bigĠ
mil ed
h ome
u g
oo k
j u
bir dĠ
d oĠ
M ay
s .Ġ
an c
th ing
ch Ġ
M o
b eĠ
B e
li vedĠ
no wĠ
.Ġ" T
q u
ar Ġ
flow er
aga in
igh tĠ
f a
si de
goo dĠ
happ yĠ
tt er
.Ġ IĠ
ra bb
v erĠ
sa wĠ
a l
d anc
Ru st
a b
d er
l yĠ
."ĊĊ "
! "Ġ
g ir
m eĠ
ab outĠ
,"ĠsaidĠ theĠ
want edĠtoĠ
ga veĠ
r and
o p
, "Ġs
e pĠ
w eĠ
w ouldĠ
u nĠ
m u
b estĠ
wasĠ aĠ
.ĊĊ" W
hankĠ you
sa d
Milo Ġ
hatĠ isĠ
ough tĠ
en t
o wĠ
Lil yĠ
ba ckĠ
ar n
m p
tre e
Ġs heĠ
s heĠ
rom Ġ
.ĠSheĠ wasĠ
.ĠHeĠ wasĠ
bir d
l u
lli eĠ
A n
edĠ andĠ
s of
a f
re tt
w antĠ
b y
i s
g e
p rett
c an
hi m
ar k
c a
Max Ġ
un nyĠ
wat er
om Ġ
r anĠ
in yĠ
help edĠ
g ard
Ġs a
p u
m an
.ĊĊ" YouĠ
Mi aĠ
M am
sĠ andĠ
st ar
g re
r ow
theĠ s
scar ed
f indĠ
p r
.ĊĊ" Yes
h ug
le arn
he n
G rand
o ldĠ
.ĊĊOneĠ day,Ġ
e a
ou t
.ĠTheĠ s
."ĊĊ TheĠ
.ĠHeĠ hadĠ
ver y
t ur
ti me
.ĠSheĠ hadĠ
s .ĠTheyĠ
too kĠ
.ĊĊ" H
Mo ll
bra ve
w in
.ĊĊT heyĠ
dow nĠ
k ed
you rĠ
y 'sĠ
on g
i llĠ
s omethingĠ
Sam myĠ
r yĠ
on e
ha veĠ
Bell aĠ
her e
a c
