{
  "!": 0,
  "\"": 1,
  "'": 2,
  "(": 3,
  ")": 4,
  "*": 5,
  ",": 6,
  "-": 7,
  ".": 8,
  "0": 9,
  "1": 10,
  "2": 11,
  "3": 12,
  "4": 13,
  "5": 14,
  "7": 15,
  ":": 16,
  "?": 17,
  "A": 18,
  "B": 19,
  "C": 20,
  "D": 21,
  "E": 22,
  "F": 23,
  "G": 24,
  "H": 25,
  "I": 26,
  "J": 27,
  "K": 28,
  "L": 29,
  "M": 30,
  "N": 31,
  "O": 32,
  "P": 33,
  "Q": 34,
  "R": 35,
  "S": 36,
  "T": 37,
  "U": 38,
  "V": 39,
  "W": 40,
  "X": 41,
  "Y": 42,
  "Z": 43,
  "a": 44,
  "b": 45,
  "c": 46,
  "d": 47,
  "e": 48,
  "f": 49,
  "g": 50,
  "h": 51,
  "i": 52,
  "j": 53,
  "k": 54,
  "l": 55,
  "m": 56,
  "n": 57,
  "o": 58,
  "p": 59,
  "q": 60,
  "r": 61,
  "s": 62,
  "t": 63,
  "u": 64,
  "v": 65,
  "w": 66,
  "x": 67,
  "y": 68,
  "z": 69,
  "á": 70,
  "Ċ": 71,
  "Ġ": 72,
  "–": 73,
  "—": 74,
  "eĠ": 75,
  "dĠ": 76,
  ".Ġ": 77,
  "tĠ": 78,
  "th": 79,
  "ĊĊ": 80,
  "sĠ": 81,
  "yĠ": 82,
  "er": 83,
  ".ĊĊ": 84,
  "Ġs": 85,
  "an": 86,
  "in": 87,
  "edĠ": 88,
  "wa": 89,
  "ou": 90,
  "theĠ": 91,
  "heĠ": 92,
  "ll": 93,
  "to": 94,
  "he": 95,
  "ar": 96,
  "aĠ": 97,
  "wasĠ": 98,
  "ai": 99,
  "en": 100,
  "am": 101,
  "lo": 102,
  "ĠtheĠ": 103,
  ".ĠT": 104,
  "ha": 105,
  ".ĊĊ\"": 106,
  "\"Ġs": 107,
  "ing": 108,
  ".Ġ\"": 109,
  "aidĠ": 110,
  ",Ġ": 111,
  "erĠ": 112,
  "andĠ": 113,
  "om": 114,
  "\"ĊĊ": 115,
  "isĠ": 116,
  ".ĠH": 117,
  "\"ĠsaidĠ": 118,
  "on": 119,
  "no": 120,
  "or": 121,
  ".ĠS": 122,
  "IĠ": 123,
  "kedĠ": 124,
  "it": 125,
  "llĠ": 126,
  "ed": 127,
  "toĠ": 128,
  "atĠ": 129,
  "you": 130,
  ".ĠHeĠ": 131,
  "pĠ": 132,
  "ig": 133,
  "st": 134,
  "re": 135,
  "ay": 136,
  "wĠ": 137,
  ",\"ĠsaidĠ": 138,
  ".ĠSheĠ": 139,
  ".\"ĊĊ": 140,
  "ma": 141,
  "kĠ": 142,
  "le": 143,
  "oĠ": 144,
  "ir": 145,
  "ingĠ": 146,
  "wi": 147,
  "ver": 148,
  "Pi": 149,
  "heyĠ": 150,
  "el": 151,
  "ldĠ": 152,
  "notĠ": 153,
  "ri": 154,
  "utĠ": 155,
  "il": 156,
  "nĠ": 157,
  "es": 158,
  "oo": 159,
  "pp": 160,
  "ItĠ": 161,
  ".ĊĊT": 162,
  "li": 163,
  "Sam": 164,
  "ne": 165,
  "ow": 166,
  ".ĠTheĠ": 167,
  "ra": 168,
  "\"Ġ": 169,
  "loo": 170,
  "anĠ": 171,
  ".ĠTheyĠ": 172,
  "ch": 173,
  "leĠ": 174,
  "of": 175,
  "ereĠ": 176,
  "itĠ": 177,
  "ndĠ": 178,
  "ButĠ": 179,
  "hadĠ": 180,
  "be": 181,
  ".ĠItĠ": 182,
  "youĠ": 183,
  "di": 184,
  "hisĠ": 185,
  "un": 186,
  "as": 187,
  "aĠs": 188,
  "eth": 189,
  "Mi": 190,
  "lookedĠ": 191,
  "se": 192,
  "veryĠ": 193,
  "hel": 194,
  "itt": 195,
  "'sĠ": 196,
  "thĠ": 197,
  "big": 198,
  "sa": 199,
  "day": 200,
  "the": 201,
  "sh": 202,
  "me": 203,
  "herĠ": 204,
  "mĠ": 205,
  "ba": 206,
  "veĠ": 207,
  "fel": 208,
  "rien": 209,
  "igh": 210,
  "feltĠ": 211,
  "happ": 212,
  "You": 213,
  "PipĠ": 214,
  "didĠ": 215,
  "ell": 216,
  "frien": 217,
  "YouĠ": 218,
  "enĠ": 219,
  "pl": 220,
  "withĠ": 221,
  "for": 222,
  ".Ġ\"IĠ": 223,
  "ouldĠ": 224,
  "hatĠ": 225,
  "ittleĠ": 226,
  "oth": 227,
  "keĠ": 228,
  "too": 229,
  "inĠ": 230,
  "car": 231,
  "deĠ": 232,
  ".ĊĊTheĠ": 233,
  "ameĠ": 234,
  ".ĠButĠ": 235,
  "at": 236,
  "and": 237,
  "wereĠ": 238,
  "ke": 239,
  "ayĠ": 240,
  "hell": 241,
  "dow": 242,
  "aid": 243,
  "si": 244,
  "ro": 245,
  "henĠ": 246,
  "!\"ĠsaidĠ": 247,
  "areĠ": 248,
  "tt": 249,
  "friend": 250,
  "entĠ": 251,
  "Pip": 252,
  "bigĠ": 253,
  "myĠ": 254,
  "littleĠ": 255,
  "low": 256,
  "ck": 257,
  "hi": 258,
  "ga": 259,
  ".ĠItĠwasĠ": 260,
  "inĠtheĠ": 261,
  "all": 262,
  "ant": 263,
  "vedĠ": 264,
  "stĠ": 265,
  ".ĠA": 266,
  "ly": 267,
  "lĠ": 268,
  "de": 269,
  "madeĠ": 270,
  "wat": 271,
  "omeĠ": 272,
  "help": 273,
  "Ru": 274,
  "cameĠ": 275,
  "byĠ": 276,
  "!Ġ": 277,
  "onĠ": 278,
  "ox": 279,
  "bir": 280,
  "oundĠ": 281,
  "wor": 282,
  "heĠs": 283,
  "Ro": 284,
  ".ĊĊ\"IĠ": 285,
  "ur": 286,
  "soĠ": 287,
  "toĠtheĠ": 288,
  "neĠ": 289,
  "geth": 290,
  "?\"Ġ": 291,
  "didĠnotĠ": 292,
  "war": 293,
  "wentĠ": 294,
  "Shell": 295,
  "ic": 296,
  "br": 297,
  "go": 298,
  "rom": 299,
  "togeth": 300,
  "ta": 301,
  "mil": 302,
  "seĠ": 303,
  "gh": 304,
  "day,Ġ": 305,
  "OneĠ": 306,
  "her": 307,
  "indĠ": 308,
  "ti": 309,
  "askedĠ": 310,
  "SamĠ": 311,
  "wal": 312,
  "fe": 313,
  "TheĠ": 314,
  "ome": 315,
  "!\"ĊĊ": 316,
  "ho": 317,
  "thatĠ": 318,
  "mallĠ": 319,
  "Ma": 320,
  "ofĠ": 321,
  "esĠ": 322,
  "happy": 323,
  "bo": 324,
  "oun": 325,
  "outĠ": 326,
  "ankĠ": 327,
  "amĠ": 328,
  "ight": 329,
  "couldĠ": 330,
  "goo": 331,
  "ometh": 332,
  "tre": 333,
  "fu": 334,
  "?\"ĠaskedĠ": 335,
  "Max": 336,
  "edĠtoĠ": 337,
  ".ĊĊ\"T": 338,
  "ard": 339,
  "tr": 340,
  "Lil": 341,
  "mor": 342,
  "nyĠ": 343,
  "forĠ": 344,
  ".ĊĊA": 345,
  "Milo": 346,
  "WeĠ": 347,
  "up": 348,
  "theyĠ": 349,
  "mi": 350,
  "willĠ": 351,
  "walkedĠ": 352,
  "hankĠ": 353,
  "bu": 354,
  "Fox": 355,
  "ough": 356,
  "edĠtheĠ": 357,
  "lli": 358,
  ",\"Ġ": 359,
  "now": 360,
  "ckĠ": 361,
  "rea": 362,
  "otherĠ": 363,
  "antĠ": 364,
  "heĠsaid": 365,
  "oneĠ": 366,
  "estĠ": 367,
  "together": 368,
  "satĠ": 369,
  "bb": 370,
  "canĠ": 371,
  "gĠ": 372,
  "hereĠ": 373,
  "allĠ": 374,
  "la": 375,
  "do": 376,
  "scar": 377,
  "et": 378,
  "Yes": 379,
  "co": 380,
  "Ben": 381,
  "Bell": 382,
  "ShellyĠ": 383,
  "ound": 384,
  "foundĠ": 385,
  "newĠ": 386,
  "bra": 387,
  "ep": 388,
  ".Ġ\"YouĠ": 389,
  ".ĊĊOneĠ": 390,
  "way": 391,
  "upĠ": 392,
  "onĠtheĠ": 393,
  "ve": 394,
  "pe": 395,
  "mo": 396,
  "ind": 397,
  "lookedĠatĠ": 398,
  ".ĊĊS": 399,
  "want": 400,
  "pa": 401,
  "!ĊĊ": 402,
  "etĠ": 403,
  "likeĠ": 404,
  "fi": 405,
  "other": 406,
  "flow": 407,
  "dayĠ": 408,
  "toĠs": 409,
  "?\"ĊĊ": 410,
  "play": 411,
  "hear": 412,
  "rĠ": 413,
  "warmĠ": 414,
  "helpĠ": 415,
  "aga": 416,
  "omethingĠ": 417,
  "aĠsmallĠ": 418,
  "gotĠ": 419,
  "ry": 420,
  ".ĠHisĠ": 421,
  "down": 422,
  ".ĠAndĠ": 423,
  "aĠbigĠ": 424,
  "miled": 425,
  "home": 426,
  "ug": 427,
  "ook": 428,
  "ju": 429,
  "birdĠ": 430,
  "doĠ": 431,
  "May": 432,
  "s.Ġ": 433,
  "anc": 434,
  "thing": 435,
  "chĠ": 436,
  "Mo": 437,
  "beĠ": 438,
  "Be": 439,
  "livedĠ": 440,
  "nowĠ": 441,
  ".Ġ\"T": 442,
  "qu": 443,
  "arĠ": 444,
  "flower": 445,
  "again": 446,
  "ightĠ": 447,
  "fa": 448,
  "side": 449,
  "goodĠ": 450,
  "happyĠ": 451,
  "tter": 452,
  ".ĠIĠ": 453,
  "rabb": 454,
  "verĠ": 455,
  "sawĠ": 456,
  "al": 457,
  "danc": 458,
  "Rust": 459,
  "ab": 460,
  "der": 461,
  "lyĠ": 462,
  ".\"ĊĊ\"": 463,
  "!\"Ġ": 464,
  "gir": 465,
  "meĠ": 466,
  "aboutĠ": 467,
  ",\"ĠsaidĠtheĠ": 468,
  "wantedĠtoĠ": 469,
  "gaveĠ": 470,
  "rand": 471,
  "op": 472,
  ",\"Ġs": 473,
  "epĠ": 474,
  "weĠ": 475,
  "wouldĠ": 476,
  "unĠ": 477,
  "mu": 478,
  "bestĠ": 479,
  "wasĠaĠ": 480,
  ".ĊĊ\"W": 481,
  "hankĠyou": 482,
  "sad": 483,
  "MiloĠ": 484,
  "hatĠisĠ": 485,
  "oughtĠ": 486,
  "ent": 487,
  "owĠ": 488,
  "LilyĠ": 489,
  "backĠ": 490,
  "arn": 491,
  "mp": 492,
  "tree": 493,
  "ĠsheĠ": 494,
  "sheĠ": 495,
  "romĠ": 496,
  ".ĠSheĠwasĠ": 497,
  ".ĠHeĠwasĠ": 498,
  "bird": 499,
  "lu": 500,
  "llieĠ": 501,
  "An": 502,
  "edĠandĠ": 503,
  "sof": 504,
  "af": 505,
  "rett": 506,
  "wantĠ": 507,
  "by": 508,
  "is": 509,
  "ge": 510,
  "prett": 511,
  "can": 512,
  "him": 513,
  "ark": 514,
  "ca": 515,
  "MaxĠ": 516,
  "unnyĠ": 517,
  "water": 518,
  "omĠ": 519,
  "ranĠ": 520,
  "inyĠ": 521,
  "helpedĠ": 522,
  "gard": 523,
  "Ġsa": 524,
  "pu": 525,
  "man": 526,
  ".ĊĊ\"YouĠ": 527,
  "MiaĠ": 528,
  "Mam": 529,
  "sĠandĠ": 530,
  "star": 531,
  "gre": 532,
  "row": 533,
  "theĠs": 534,
  "scared": 535,
  "findĠ": 536,
  "pr": 537,
  ".ĊĊ\"Yes": 538,
  "hug": 539,
  "learn": 540,
  "hen": 541,
  "Grand": 542,
  "oldĠ": 543,
  ".ĊĊOneĠday,Ġ": 544,
  "ea": 545,
  "out": 546,
  ".ĠTheĠs": 547,
  ".\"ĊĊTheĠ": 548,
  ".ĠHeĠhadĠ": 549,
  "very": 550,
  "tur": 551,
  "time": 552,
  ".ĠSheĠhadĠ": 553,
  "s.ĠTheyĠ": 554,
  "tookĠ": 555,
  ".ĊĊ\"H": 556,
  "Moll": 557,
  "brave": 558,
  "win": 559,
  ".ĊĊTheyĠ": 560,
  "downĠ": 561,
  "ked": 562,
  "yourĠ": 563,
  "y'sĠ": 564,
  "ong": 565,
  "illĠ": 566,
  "somethingĠ": 567,
  "SammyĠ": 568,
  "ryĠ": 569,
  "one": 570,
  "haveĠ": 571,
  "BellaĠ": 572,
  "here": 573,
  "ac": 574
}
