{
  "!": 0,
  "\"": 1,
  "'": 2,
  "*": 3,
  ",": 4,
  "-": 5,
  ".": 6,
  "1": 7,
  "2": 8,
  ":": 9,
  "?": 10,
  "A": 11,
  "B": 12,
  "C": 13,
  "D": 14,
  "E": 15,
  "F": 16,
  "G": 17,
  "H": 18,
  "I": 19,
  "J": 20,
  "K": 21,
  "L": 22,
  "M": 23,
  "N": 24,
  "O": 25,
  "P": 26,
  "Q": 27,
  "R": 28,
  "S": 29,
  "T": 30,
  "U": 31,
  "V": 32,
  "W": 33,
  "Y": 34,
  "Z": 35,
  "a": 36,
  "b": 37,
  "c": 38,
  "d": 39,
  "e": 40,
  "f": 41,
  "g": 42,
  "h": 43,
  "i": 44,
  "j": 45,
  "k": 46,
  "l": 47,
  "m": 48,
  "n": 49,
  "o": 50,
  "p": 51,
  "q": 52,
  "r": 53,
  "s": 54,
  "t": 55,
  "u": 56,
  "v": 57,
  "w": 58,
  "x": 59,
  "y": 60,
  "z": 61,
  "Ċ": 62,
  "Ġ": 63,
  "—": 64,
  "eĠ": 65,
  "dĠ": 66,
  ".Ġ": 67,
  "tĠ": 68,
  "th": 69,
  "ĊĊ": 70,
  "sĠ": 71,
  "yĠ": 72,
  "er": 73,
  ".ĊĊ": 74,
  "Ġs": 75,
  "an": 76,
  "in": 77,
  "edĠ": 78,
  "wa": 79,
  "ou": 80,
  "theĠ": 81,
  "heĠ": 82,
  "ll": 83,
  "to": 84,
  "he": 85,
  "ar": 86,
  "aĠ": 87,
  "wasĠ": 88,
  "ai": 89,
  "en": 90,
  "am": 91,
  "lo": 92,
  "ĠtheĠ": 93,
  ".ĠT": 94,
  "ha": 95,
  ".ĊĊ\"": 96,
  ".Ġ\"": 97,
  "ing": 98,
  "\"Ġs": 99,
  "aidĠ": 100,
  ",Ġ": 101,
  "erĠ": 102,
  "andĠ": 103,
  "om": 104,
  "\"ĊĊ": 105,
  "isĠ": 106,
  "\"ĠsaidĠ": 107,
  ".ĠH": 108,
  "on": 109,
  "no": 110,
  "or": 111,
  ".ĠS": 112,
  "IĠ": 113,
  "kedĠ": 114,
  "it": 115,
  "llĠ": 116,
  "ed": 117,
  "toĠ": 118,
  "atĠ": 119,
  "you": 120,
  ".ĠHeĠ": 121,
  "pĠ": 122,
  "ig": 123,
  "re": 124,
  "wĠ": 125,
  "st": 126,
  "ay": 127,
  ".ĠSheĠ": 128,
  ",\"ĠsaidĠ": 129,
  ".\"ĊĊ": 130,
  "ma": 131,
  "kĠ": 132,
  "le": 133,
  "oĠ": 134,
  "ir": 135,
  "ingĠ": 136,
  "wi": 137,
  "ver": 138,
  "Pi": 139,
  "heyĠ": 140,
  "el": 141,
  "il": 142,
  "utĠ": 143,
  "ri": 144,
  "notĠ": 145,
  "ldĠ": 146,
  "pp": 147,
  "nĠ": 148,
  "es": 149,
  "oo": 150,
  "ItĠ": 151,
  "li": 152,
  "ne": 153,
  ".ĊĊT": 154,
  "Sam": 155,
  "ow": 156,
  "ra": 157,
  ".ĠTheĠ": 158,
  "\"Ġ": 159,
  "loo": 160,
  "anĠ": 161,
  "of": 162,
  "leĠ": 163,
  "ch": 164,
  ".ĠTheyĠ": 165,
  "ereĠ": 166,
  "ndĠ": 167,
  "ButĠ": 168,
  "itĠ": 169,
  "hadĠ": 170,
  "be": 171,
  ".ĠItĠ": 172,
  "youĠ": 173,
  "di": 174,
  "un": 175,
  "hisĠ": 176,
  "aĠs": 177,
  "sh": 178,
  "eth": 179,
  "Mi": 180,
  "se": 181,
  "itt": 182,
  "lookedĠ": 183,
  "hel": 184,
  "veryĠ": 185,
  "thĠ": 186,
  "ell": 187,
  "sa": 188,
  "as": 189,
  "'sĠ": 190,
  "day": 191,
  "herĠ": 192,
  "big": 193,
  "the": 194,
  "veĠ": 195,
  "mĠ": 196,
  "fel": 197,
  "ba": 198,
  "igh": 199,
  "feltĠ": 200,
  "happ": 201,
  "rien": 202,
  "You": 203,
  "didĠ": 204,
  "PipĠ": 205,
  "me": 206,
  "frien": 207,
  "YouĠ": 208,
  "enĠ": 209,
  "for": 210,
  "ittleĠ": 211,
  "withĠ": 212,
  ".Ġ\"IĠ": 213,
  "hatĠ": 214,
  "ouldĠ": 215,
  "keĠ": 216,
  "pl": 217,
  "too": 218,
  "car": 219,
  "oth": 220,
  "inĠ": 221,
  "at": 222,
  "deĠ": 223,
  "ameĠ": 224,
  ".ĊĊTheĠ": 225,
  ".ĠButĠ": 226,
  "and": 227,
  "ic": 228,
  "wereĠ": 229,
  "ke": 230,
  "ayĠ": 231,
  "llyĠ": 232,
  "aid": 233,
  "dow": 234,
  "entĠ": 235,
  "!\"ĠsaidĠ": 236,
  "littleĠ": 237,
  "henĠ": 238,
  "low": 239,
  "friend": 240,
  "ro": 241,
  "areĠ": 242,
  "Pip": 243,
  "myĠ": 244,
  ".ĠItĠwasĠ": 245,
  "tt": 246,
  "ga": 247,
  "bigĠ": 248,
  "hi": 249,
  "inĠtheĠ": 250,
  "si": 251,
  ".ĠA": 252,
  "wat": 253,
  "stĠ": 254,
  "vedĠ": 255,
  "lĠ": 256,
  "ly": 257,
  "madeĠ": 258,
  "!Ġ": 259,
  "omeĠ": 260,
  "cameĠ": 261,
  "ant": 262,
  "byĠ": 263,
  "Ru": 264,
  "bir": 265,
  "de": 266,
  "help": 267,
  "onĠ": 268,
  ".ĊĊ\"IĠ": 269,
  "Ro": 270,
  "toĠtheĠ": 271,
  "soĠ": 272,
  "ta": 273,
  "wentĠ": 274,
  "oundĠ": 275,
  "ur": 276,
  "heĠs": 277,
  "?\"Ġ": 278,
  "neĠ": 279,
  "geth": 280,
  "wor": 281,
  "didĠnotĠ": 282,
  "war": 283,
  "She": 284,
  "ox": 285,
  "br": 286,
  "go": 287,
  "seĠ": 288,
  "togeth": 289,
  "gh": 290,
  "mil": 291,
  "her": 292,
  "rom": 293,
  "day,Ġ": 294,
  "OneĠ": 295,
  "ck": 296,
  "askedĠ": 297,
  "esĠ": 298,
  "indĠ": 299,
  "all": 300,
  "ti": 301,
  "TheĠ": 302,
  "fe": 303,
  "SamĠ": 304,
  "ho": 305,
  "ofĠ": 306,
  "thatĠ": 307,
  "outĠ": 308,
  "mallĠ": 309,
  "bo": 310,
  "!\"ĊĊ": 311,
  "happy": 312,
  "wal": 313,
  "ome": 314,
  "Ma": 315,
  "ankĠ": 316,
  "oun": 317,
  "ight": 318,
  "amĠ": 319,
  "tre": 320,
  "ometh": 321,
  "goo": 322,
  "fu": 323,
  "?\"ĠaskedĠ": 324,
  "couldĠ": 325,
  ".ĊĊ\"T": 326,
  "mor": 327,
  "edĠtoĠ": 328,
  "forĠ": 329,
  "WeĠ": 330,
  ".ĊĊA": 331,
  "ard": 332,
  "tr": 333,
  "Milo": 334,
  "Lil": 335,
  "rea": 336,
  "Max": 337,
  "up": 338,
  "theyĠ": 339,
  "nyĠ": 340,
  "mi": 341,
  "willĠ": 342,
  "ough": 343,
  ",\"Ġ": 344,
  "bu": 345,
  "lli": 346,
  "hankĠ": 347,
  "edĠtheĠ": 348,
  "walkedĠ": 349,
  "now": 350,
  "satĠ": 351,
  "Fox": 352,
  "canĠ": 353,
  "estĠ": 354,
  "heĠsaid": 355,
  "hereĠ": 356,
  "antĠ": 357,
  "la": 358,
  "ckĠ": 359,
  "otherĠ": 360,
  "oneĠ": 361,
  "allĠ": 362,
  "bb": 363,
  "scar": 364,
  "together": 365,
  "Bell": 366,
  "gĠ": 367,
  "pe": 368,
  "newĠ": 369,
  "co": 370,
  "Yes": 371,
  "et": 372,
  "ind": 373,
  "ShellyĠ": 374,
  "bra": 375,
  ".Ġ\"YouĠ": 376,
  "upĠ": 377,
  "onĠtheĠ": 378,
  "fi": 379,
  "ep": 380,
  "ound": 381,
  "ve": 382,
  "pa": 383,
  "lookedĠatĠ": 384,
  ".ĊĊOneĠ": 385,
  "dayĠ": 386,
  "foundĠ": 387,
  "likeĠ": 388,
  "way": 389,
  "mo": 390,
  "do": 391,
  "flow": 392,
  ".ĊĊS": 393,
  "toĠs": 394,
  "?\"ĊĊ": 395,
  "rĠ": 396,
  "helpĠ": 397,
  "other": 398,
  "hear": 399,
  "want": 400,
  "!ĊĊ": 401,
  "aga": 402,
  "etĠ": 403,
  "warmĠ": 404,
  "ry": 405,
  "gotĠ": 406,
  ".ĠAndĠ": 407,
  "play": 408,
  "aĠsmallĠ": 409,
  "Mo": 410,
  "omethingĠ": 411,
  "ook": 412,
  "aĠbigĠ": 413,
  "ju": 414,
  "miled": 415,
  "birdĠ": 416,
  "down": 417,
  "Ben": 418,
  "home": 419,
  "ug": 420,
  "beĠ": 421,
  ".ĠHisĠ": 422,
  "s.Ġ": 423,
  "doĠ": 424,
  "thing": 425,
  "anc": 426,
  ".Ġ\"T": 427,
  "nowĠ": 428,
  "May": 429,
  "livedĠ": 430,
  "again": 431,
  "flower": 432,
  "Be": 433,
  "chĠ": 434,
  "qu": 435,
  "happyĠ": 436,
  "sawĠ": 437,
  "fa": 438,
  ".ĠIĠ": 439,
  "side": 440,
  "rabb": 441,
  "ab": 442,
  "tter": 443,
  "arĠ": 444,
  "ightĠ": 445,
  "goodĠ": 446,
  "op": 447,
  "lly": 448,
  "aboutĠ": 449,
  "danc": 450,
  "verĠ": 451,
  "meĠ": 452,
  "al": 453,
  ".\"ĊĊ\"": 454,
  "Rust": 455,
  "lyĠ": 456,
  "weĠ": 457,
  "!\"Ġ": 458,
  "der": 459,
  "owĠ": 460,
  "gir": 461,
  ",\"ĠsaidĠtheĠ": 462,
  "rand": 463,
  "gaveĠ": 464,
  "unĠ": 465,
  "wasĠaĠ": 466,
  ".ĊĊ\"W": 467,
  "wantedĠtoĠ": 468,
  "hatĠisĠ": 469,
  "oughtĠ": 470,
  "arn": 471,
  "bestĠ": 472,
  "sad": 473,
  "MiloĠ": 474,
  "wouldĠ": 475,
  "hankĠyou": 476,
  ",\"Ġs": 477,
  "ĠsheĠ": 478,
  "backĠ": 479,
  "epĠ": 480,
  "tree": 481,
  "bird": 482,
  "An": 483,
  "ent": 484,
  "LilyĠ": 485,
  "lu": 486,
  "mu": 487,
  "by": 488,
  "mp": 489,
  "sheĠ": 490,
  "romĠ": 491,
  "ge": 492,
  "inyĠ": 493,
  ".ĠSheĠwasĠ": 494,
  "llieĠ": 495,
  "sof": 496,
  ".ĠHeĠwasĠ": 497,
  "edĠandĠ": 498,
  "wantĠ": 499,
  "af": 500,
  "omĠ": 501,
  "is": 502,
  "water": 503,
  "unnyĠ": 504,
  "can": 505,
  "Mam": 506,
  "ca": 507,
  "sĠandĠ": 508,
  "ark": 509,
  "him": 510,
  "rett": 511,
  ".ĊĊ\"YouĠ": 512,
  "ranĠ": 513,
  "helpedĠ": 514,
  "row": 515,
  "Ġsa": 516,
  "gard": 517,
  "prett": 518,
  "MaxĠ": 519,
  "gre": 520,
  "theĠs": 521,
  "scared": 522,
  "learn": 523,
  "pr": 524,
  "oldĠ": 525,
  "MiaĠ": 526,
  ".ĠSheĠhadĠ": 527,
  "man": 528,
  "pu": 529,
  "Grand": 530,
  ".ĊĊ\"Yes": 531,
  "out": 532,
  "star": 533,
  ".ĊĊOneĠday,Ġ": 534,
  "very": 535,
  ".ĠTheĠs": 536,
  ".ĊĊ\"H": 537,
  "hug": 538,
  "hen": 539,
  "ea": 540,
  "brave": 541,
  "findĠ": 542,
  ".\"ĊĊTheĠ": 543,
  "time": 544,
  "haveĠ": 545,
  "fish": 546,
  "yourĠ": 547,
  "watch": 548,
  "BellaĠ": 549,
  "downĠ": 550,
  ".ĠHeĠhadĠ": 551,
  "aĠlittleĠ": 552,
  ".ĊĊTheyĠ": 553,
  "thisĠ": 554,
  "tookĠ": 555,
  "illĠ": 556,
  "gi": 557,
  "one": 558,
  "ryĠ": 559,
  "ked": 560,
  "ong": 561,
  "mall": 562,
  "s.ĠTheyĠ": 563,
  "xtĠ": 564
}
