{
  "!": 0,
  "\"": 1,
  "#": 2,
  "&": 3,
  "'": 4,
  "(": 5,
  ")": 6,
  "*": 7,
  "+": 8,
  ",": 9,
  "-": 10,
  ".": 11,
  "/": 12,
  "0": 13,
  "1": 14,
  "2": 15,
  "3": 16,
  "4": 17,
  "5": 18,
  "6": 19,
  "7": 20,
  "8": 21,
  "9": 22,
  ":": 23,
  ";": 24,
  "<": 25,
  "=": 26,
  ">": 27,
  "?": 28,
  "A": 29,
  "B": 30,
  "C": 31,
  "D": 32,
  "E": 33,
  "F": 34,
  "G": 35,
  "H": 36,
  "I": 37,
  "J": 38,
  "K": 39,
  "L": 40,
  "M": 41,
  "N": 42,
  "O": 43,
  "P": 44,
  "Q": 45,
  "R": 46,
  "S": 47,
  "T": 48,
  "U": 49,
  "V": 50,
  "W": 51,
  "X": 52,
  "Y": 53,
  "Z": 54,
  "[": 55,
  "\\": 56,
  "]": 57,
  "^": 58,
  "_": 59,
  "`": 60,
  "a": 61,
  "b": 62,
  "c": 63,
  "d": 64,
  "e": 65,
  "f": 66,
  "g": 67,
  "h": 68,
  "i": 69,
  "j": 70,
  "k": 71,
  "l": 72,
  "m": 73,
  "n": 74,
  "o": 75,
  "p": 76,
  "q": 77,
  "r": 78,
  "s": 79,
  "t": 80,
  "u": 81,
  "v": 82,
  "w": 83,
  "x": 84,
  "y": 85,
  "z": 86,
  "{": 87,
  "|": 88,
  "}": 89,
  "~": 90,
  "£": 91,
  "«": 92,
  "¯": 93,
  "°": 94,
  "´": 95,
  "·": 96,
  "º": 97,
  "»": 98,
  "À": 99,
  "Á": 100,
  "Â": 101,
  "Ä": 102,
  "Æ": 103,
  "Ç": 104,
  "È": 105,
  "É": 106,
  "Ê": 107,
  "Ë": 108,
  "Í": 109,
  "Î": 110,
  "Ñ": 111,
  "Ô": 112,
  "Ö": 113,
  "Ü": 114,
  "ß": 115,
  "à": 116,
  "á": 117,
  "â": 118,
  "ä": 119,
  "å": 120,
  "æ": 121,
  "ç": 122,
  "è": 123,
  "é": 124,
  "ê": 125,
  "ë": 126,
  "ì": 127,
  "í": 128,
  "î": 129,
  "ï": 130,
  "ñ": 131,
  "ò": 132,
  "ó": 133,
  "ô": 134,
  "ö": 135,
  "ø": 136,
  "ù": 137,
  "ú": 138,
  "û": 139,
  "ü": 140,
  "Ā": 141,
  "ā": 142,
  "Ă": 143,
  "ă": 144,
  "Ċ": 145,
  "Ē": 146,
  "ē": 147,
  "ĕ": 148,
  "Ġ": 149,
  "ī": 150,
  "Ĭ": 151,
  "ĭ": 152,
  "ō": 153,
  "ŏ": 154,
  "œ": 155,
  "ū": 156,
  "ŭ": 157,
  "ȳ": 158,
  "˘": 159,
  "̄": 160,
  "̆": 161,
  "͞": 162,
  "Α": 163,
  "Γ": 164,
  "Δ": 165,
  "Ε": 166,
  "Η": 167,
  "Θ": 168,
  "Κ": 169,
  "Ν": 170,
  "Ο": 171,
  "Π": 172,
  "Ρ": 173,
  "Σ": 174,
  "Τ": 175,
  "Φ": 176,
  "ά": 177,
  "έ": 178,
  "ή": 179,
  "ί": 180,
  "α": 181,
  "β": 182,
  "γ": 183,
  "δ": 184,
  "ε": 185,
  "ζ": 186,
  "η": 187,
  "θ": 188,
  "ι": 189,
  "κ": 190,
  "λ": 191,
  "μ": 192,
  "ν": 193,
  "ξ": 194,
  "ο": 195,
  "π": 196,
  "ρ": 197,
  "ς": 198,
  "σ": 199,
  "τ": 200,
  "υ": 201,
  "φ": 202,
  "χ": 203,
  "ψ": 204,
  "ω": 205,
  "ϊ": 206,
  "ό": 207,
  "ύ": 208,
  "ώ": 209,
  "ἀ": 210,
  "ἄ": 211,
  "ἅ": 212,
  "Ἀ": 213,
  "Ἄ": 214,
  "Ἆ": 215,
  "ἐ": 216,
  "ἑ": 217,
  "ἔ": 218,
  "Ἐ": 219,
  "Ἑ": 220,
  "Ἔ": 221,
  "ἠ": 222,
  "ἡ": 223,
  "ἢ": 224,
  "ἤ": 225,
  "ἥ": 226,
  "Ἡ": 227,
  "ἰ": 228,
  "ἱ": 229,
  "ἴ": 230,
  "ἶ": 231,
  "Ἰ": 232,
  "ὀ": 233,
  "ὁ": 234,
  "ὄ": 235,
  "ὅ": 236,
  "Ὅ": 237,
  "ὐ": 238,
  "ὑ": 239,
  "ὔ": 240,
  "ὕ": 241,
  "ὖ": 242,
  "Ὑ": 243,
  "ὠ": 244,
  "ὢ": 245,
  "ὥ": 246,
  "Ὠ": 247,
  "ὰ": 248,
  "ὲ": 249,
  "ὴ": 250,
  "ὶ": 251,
  "ὸ": 252,
  "ὺ": 253,
  "ὼ": 254,
  "ᾳ": 255,
  "ᾶ": 256,
  "ᾷ": 257,
  "ῃ": 258,
  "ῆ": 259,
  "ῇ": 260,
  "ῑ": 261,
  "ῖ": 262,
  "ῦ": 263,
  "ῳ": 264,
  "ῶ": 265,
  "ῷ": 266,
  "—": 267,
  "‘": 268,
  "’": 269,
  "“": 270,
  "”": 271,
  "…": 272,
  "eĠ": 273,
  "th": 274,
  "ĠĠ": 275,
  "sĠ": 276,
  "dĠ": 277,
  "tĠ": 278,
  "in": 279,
  "er": 280,
  ",Ġ": 281,
  "an": 282,
  "Ġth": 283,
  "ĠĠĠĠ": 284,
  "ou": 285,
  "en": 286,
  "yĠ": 287,
  "on": 288,
  "ar": 289,
  "or": 290,
  ",Ċ": 291,
  "re": 292,
  "oĠ": 293,
  "ll": 294,
  "ĠtheĠ": 295,
  "st": 296,
  "of": 297,
  "andĠ": 298,
  "ing": 299,
  "hi": 300,
  "ha": 301,
  "es": 302,
  "edĠ": 303,
  "ĊĊ": 304,
  "ow": 305,
  "ĠĠĠĠĠĠĠĠ": 306,
  "Ġs": 307,
  "om": 308,
  "ea": 309,
  "theĠ": 310,
  "gh": 311,
  "Ġw": 312,
  "Th": 313,
  "li": 314,
  "ch": 315,
  "Ġa": 316,
  "--": 317,
  "ofĠ": 318,
  "erĠ": 319,
  "ri": 320,
  "toĠ": 321,
  "at": 322,
  "ndĠ": 323,
  "ith": 324,
  "ed": 325,
  "ear": 326,
  "ingĠ": 327,
  ".Ġ": 328,
  ".ĊĊ": 329,
  "el": 330,
  "ir": 331,
  "al": 332,
  "Ġm": 333,
  "AndĠ": 334,
  "isĠ": 335,
  "atĠ": 336,
  "e,Ġ": 337,
  "it": 338,
  "eĊ": 339,
  "Ġf": 340,
  "esĠ": 341,
  "ra": 342,
  ";Ċ": 343,
  "Ġb": 344,
  "is": 345,
  "TheĠ": 346,
  "ur": 347,
  "la": 348,
  "os": 349,
  "un": 350,
  "veĠ": 351,
  "ee": 352,
  ".Ċ": 353,
  "no": 354,
  "asĠ": 355,
  "our": 356,
  "il": 357,
  "oo": 358,
  "'sĠ": 359,
  "Ġh": 360,
  "e,Ċ": 361,
  "hisĠ": 362,
  "for": 363,
  "ol": 364,
  "Ġd": 365,
  "s,Ġ": 366,
  "ti": 367,
  "rom": 368,
  "Ġc": 369,
  "Ġp": 370,
  "ro": 371,
  "em": 372,
  "with": 373,
  "ĠĠĠĠĠĠĠĠĠĠĠĠĠĠĠĠ": 374,
  "am": 375,
  "ght": 376,
  "stĠ": 377,
  "ereĠ": 378,
  "sh": 379,
  "ceĠ": 380,
  "ill": 381,
  "wh": 382,
  "ain": 383,
  ",ĠandĠ": 384,
  "oul": 385,
  "all": 386,
  "ver": 387,
  "to": 388,
  "utĠ": 389,
  "et": 390,
  "leĠ": 391,
  "hatĠ": 392,
  "lo": 393,
  "ĠandĠ": 394,
  "id": 395,
  "notĠ": 396,
  "enĠ": 397,
  "ent": 398,
  "ion": 399,
  "ĊW": 400,
  "ell": 401,
  "ghtĠ": 402,
  "oun": 403,
  "ic": 404,
  "sp": 405,
  "ĊO": 406,
  "ay": 407,
  "ec": 408,
  "keĠ": 409,
  "itĠ": 410,
  "inĠ": 411,
  "ad": 412,
  "thatĠ": 413,
  "ul": 414,
  ",ĊAndĠ": 415,
  "hich": 416,
  "etĠ": 417,
  "ĊT": 418,
  "and": 419,
  "._": 420,
  "as": 421,
  "ong": 422,
  "lyĠ": 423,
  "ĊI": 424,
  "ĊA": 425,
  "now": 426,
  "up": 427,
  "heĠ": 428,
  "ouldĠ": 429,
  "from": 430,
  "um": 431,
  "the": 432,
  "myĠ": 433,
  "di": 434,
  "Ġthe": 435,
  "rou": 436,
  "ofĠtheĠ": 437,
  "ther": 438,
  "anĠ": 439,
  "aĠ": 440,
  "orĠ": 441,
  "essĠ": 442,
  "ev": 443,
  "ag": 444,
  "us": 445,
  "bl": 446,
  "you": 447,
  "be": 448,
  "ter": 449,
  "IĠ": 450,
  "fĠ": 451,
  "own": 452,
  "end": 453,
  "ĊTheĠ": 454,
  "onĠ": 455,
  "ac": 456,
  "ĠthatĠ": 457,
  "oseĠ": 458,
  "ru": 459,
  "im": 460,
  "entĠ": 461,
  "!Ġ": 462,
  "thou": 463,
  "Wh": 464,
  "areĠ": 465,
  "ind": 466,
  "qu": 467,
  "est": 468,
  "him": 469,
  "ew": 470,
  "ousĠ": 471,
  "haveĠ": 472,
  "pp": 473,
  "ut": 474,
  "ayĠ": 475,
  "eep": 476,
  "'dĠ": 477,
  "!Ċ": 478,
  ":Ċ": 479,
  "lea": 480,
  "ran": 481,
  "mor": 482,
  "su": 483,
  "s,Ċ": 484,
  "wasĠ": 485,
  "ĠofĠ": 486,
  "estĠ": 487,
  "wor": 488,
  "hear": 489,
  "ck": 490,
  "oneĠ": 491,
  "inĠtheĠ": 492,
  "rea": 493,
  "nĠ": 494,
  "omeĠ": 495,
  "ey": 496,
  "ce": 497,
  "ButĠ": 498,
  "res": 499,
  "op": 500,
  ".ĊĊ_": 501,
  "itsĠ": 502,
  "if": 503,
  "beĠ": 504,
  "d,Ġ": 505,
  "Ġg": 506,
  "sĠofĠ": 507,
  "Ġwith": 508,
  "ven": 509,
  "fl": 510,
  "toĠtheĠ": 511,
  "18": 512,
  "meĠ": 513,
  "ight": 514,
  "fa": 515,
  ";Ġ": 516,
  "byĠ": 517,
  "likeĠ": 518,
  "idĠ": 519,
  "se": 520,
  "ĊS": 521,
  "ess": 522,
  "Ġt": 523,
  "sha": 524,
  "her": 525,
  "ful": 526,
  "ĊH": 527,
  "ab": 528,
  "y,Ġ": 529,
  "ook": 530,
  "mo": 531,
  "hadĠ": 532,
  "ower": 533,
  "thĠ": 534,
  "which": 535,
  "onĠtheĠ": 536,
  "ep": 537,
  "sel": 538,
  "noĠ": 539,
  "seĠ": 540,
  "con": 541,
  "t,Ġ": 542,
  "!ĊĊ": 543,
  "ex": 544,
  "ound": 545,
  "ation": 546,
  "ood": 547,
  "Ġthou": 548,
  "tsĠ": 549,
  "com": 550,
  "ed,Ġ": 551,
  "ak": 552,
  "Ġtheir": 553,
  "ish": 554,
  "herĠ": 555,
  "ĠthisĠ": 556,
  "ĠmyĠ": 557,
  "ure": 558,
  "your": 559,
  "man": 560,
  "._Ġ": 561,
  "ve": 562,
  "row": 563,
  "ang": 564,
  "llĠ": 565,
  "ever": 566,
  "ĊF": 567,
  "butĠ": 568,
  "Ġwh": 569,
  "usĠ": 570,
  "ef": 571,
  "aw": 572,
  "withĠ": 573,
  "rough": 574,
  "anc": 575,
  "ark": 576,
  "ureĠ": 577,
  "ightĠ": 578,
  "per": 579,
  "ĊOf": 580,
  "der": 581,
  "cl": 582,
  "tedĠ": 583,
  "vi": 584,
  "ĠtoĠ": 585,
  "sc": 586,
  "ĠaĠ": 587,
  ",ĊA": 588,
  "es,Ġ": 589,
  "oldĠ": 590,
  "sw": 591,
  "lessĠ": 592,
  "lif": 593,
  "ĊToĠ": 594,
  "ĠthyĠ": 595,
  "e;Ċ": 596,
  "In": 597,
  "light": 598,
  "Ġsp": 599,
  ",ĊT": 600,
  "e,ĠandĠ": 601,
  "old": 602,
  "ast": 603,
  ",ĊW": 604,
  "ass": 605,
  "ustĠ": 606,
  "tt": 607,
  "ount": 608,
  "hea": 609,
  "arm": 610,
  "Ġfor": 611,
  "ĊTh": 612,
  "gre": 613,
  "uch": 614,
  "know": 615,
  "ard": 616,
  "/Ġ": 617,
  "ineĠ": 618,
  "ink": 619,
  "therĠ": 620,
  "hil": 621,
  "ĊB": 622,
  "ostĠ": 623,
  "urn": 624,
  "antĠ": 625,
  "outĠ": 626,
  "ist": 627,
  "iv": 628,
  "ig": 629,
  "po": 630,
  "alĠ": 631,
  "bo": 632,
  "Ġsh": 633,
  "me": 634,
  "eath": 635,
  "sĠandĠ": 636,
  "sĠtheĠ": 637,
  "ud": 638,
  "will": 639,
  "theyĠ": 640,
  "thyĠ": 641,
  "s,ĠandĠ": 642,
  "ant": 643,
  "enceĠ": 644,
  "Ġall": 645,
  "wereĠ": 646,
  "ream": 647,
  "Ġin": 648,
  "ateĠ": 649,
  "geĠ": 650,
  "orn": 651,
  "ly": 652,
  "lov": 653,
  "weĠ": 654,
  "oodĠ": 655,
  "so": 656,
  "long": 657,
  "still": 658,
  "pla": 659,
  "Ġfrom": 660,
  "tion": 661,
  "their": 662,
  ";ĊAndĠ": 663,
  "whoĠ": 664,
  "jo": 665,
  "tre": 666,
  ",ĊS": 667,
  "sa": 668,
  "ĠheĠ": 669,
  "ĊAndĠ": 670,
  "iri": 671,
  "pl": 672,
  "gra": 673,
  "ĠI": 674,
  "indĠ": 675,
  "ĠĠĠĠĠĠ": 676,
  "gl": 677,
  "fi": 678,
  "HeĠ": 679,
  "ne": 680,
  "eem": 681,
  "soĠ": 682,
  "ĊWith": 683,
  "ĠĠĠĠĠĠĠĠĠĠĠĠĠĠĠĠĠĠĠĠĠĠĠĠĠĠĠĠĠĠĠĠ": 684,
  "de": 685,
  "do": 686,
  "eseĠ": 687,
  "thisĠ": 688,
  "art": 689,
  "everĠ": 690,
  "ĊM": 691,
  "ĠasĠ": 692,
  "akeĠ": 693,
  "self": 694,
  "ĊThatĠ": 695,
  "vo": 696,
  "?ĊĊ": 697,
  "ĊIn": 698,
  "Or": 699,
  ",ĊTheĠ": 700,
  "pa": 701,
  "yetĠ": 702,
  "e,ĊAndĠ": 703,
  "ber": 704,
  "ameĠ": 705,
  "gu": 706,
  "Ġsha": 707,
  "ĠwasĠ": 708,
  "look": 709,
  "hileĠ": 710,
  "ĠherĠ": 711,
  "by": 712,
  "'er": 713,
  "Thou": 714,
  "ĊWh": 715,
  "iousĠ": 716,
  "iveĠ": 717,
  "For": 718,
  "over": 719,
  "theĠs": 720,
  "eetĠ": 721,
  "ord": 722,
  "brea": 723,
  "ingsĠ": 724,
  "day": 725,
  "oll": 726,
  "edĠtoĠ": 727,
  "II": 728,
  "ourĠ": 729,
  "]ĊĊ": 730,
  "tra": 731,
  "ing,Ġ": 732,
  "eĊO": 733,
  "not": 734,
  ";ĠandĠ": 735,
  "redĠ": 736,
  "when": 737,
  "moreĠ": 738,
  ",ĊWh": 739,
  "ĠtheĠs": 740,
  "ap": 741,
  "sheĠ": 742,
  "No": 743,
  "fromĠ": 744,
  "ĊOfĠ": 745,
  "forĠ": 746,
  "ToĠ": 747,
  "eal": 748,
  "e.ĊĊ": 749,
  "ardĠ": 750,
  "eel": 751,
  "od": 752,
  "elyĠ": 753,
  "av": 754,
  "sl": 755,
  "The": 756,
  "ff": 757,
  "des": 758,
  "bea": 759,
  "Ġwhich": 760,
  "tim": 761,
  "bleĠ": 762,
  "..": 763,
  "ov": 764,
  "chĠ": 765,
  "tru": 766,
  "them": 767,
  "ret": 768,
  ",--": 769,
  "terĠ": 770,
  "enc": 771,
  "e.Ċ": 772,
  "ust": 773,
  "fromĠtheĠ": 774,
  "earth": 775,
  "ĠtheyĠ": 776,
  "owĠ": 777,
  "can": 778,
  "e--": 779,
  "._ĠĠĠĠĠĠĠĠĠĠĠĠĠĠĠĠ": 780,
  "tw": 781,
  "bri": 782,
  "St": 783,
  "ull": 784,
  ".--": 785,
  "edĠtheĠ": 786,
  "ub": 787,
  "eĠofĠ": 788,
  "en,Ġ": 789,
  "oundĠ": 790,
  "adĠ": 791,
  ",ĊI": 792,
  "?Ġ": 793,
  "pro": 794,
  "read": 795,
  "hasĠ": 796,
  "well": 797,
  "e'sĠ": 798,
  "eak": 799,
  "Li": 800,
  "mil": 801,
  "Ġwill": 802,
  "liv": 803,
  "Ġbe": 804,
  "whatĠ": 805,
  "dis": 806,
  "nat": 807,
  "ray": 808,
  "ofĠs": 809,
  "nessĠ": 810,
  "air": 811,
  "far": 812,
  "ThatĠ": 813,
  "ge": 814,
  "ick": 815,
  "eek": 816,
  "igh": 817,
  "other": 818,
  "ountain": 819,
  "foreĠ": 820,
  "An": 821,
  "fir": 822,
  "lightĠ": 823,
  "sĊ": 824,
  "ond": 825,
  "Ġhear": 826,
  "ĠbeĠ": 827,
  "aveĠ": 828,
  "Ġst": 829,
  "riend": 830,
  "son": 831,
  "pri": 832,
  "aĠs": 833,
  "rest": 834,
  "wouldĠ": 835,
  "With": 836,
  "ĠatĠ": 837,
  "through": 838,
  "oreĠ": 839,
  "night": 840,
  "emp": 841,
  ",ĊH": 842,
  ":Ġ": 843,
  "_,Ġ": 844,
  "MyĠ": 845,
  "rec": 846,
  "dsĠ": 847,
  "ron": 848,
  "ĠbutĠ": 849,
  "pass": 850,
  "ersĠ": 851,
  "sk": 852,
  "ros": 853,
  "reĠ": 854,
  "ofĠa": 855,
  "way": 856,
  "mayĠ": 857,
  "On": 858,
  "high": 859,
  ".\"": 860,
  "alm": 861,
  "pres": 862,
  "ideĠ": 863,
  "tal": 864,
  "You": 865,
  "ageĠ": 866,
  "ĠisĠ": 867,
  "didĠ": 868,
  "'d": 869,
  "ren": 870,
  "fre": 871,
  "anceĠ": 872,
  "ire": 873,
  "app": 874,
  "Ġam": 875,
  "ign": 876,
  "adeĠ": 877,
  "Ġthem": 878,
  "deĠ": 879,
  "Po": 880,
  "au": 881,
  "eaven": 882,
  "'T": 883,
  "ob": 884,
  "heart": 885,
  "ph": 886,
  "Un": 887,
  "ingĠs": 888,
  "ry": 889,
  ",ĠtheĠ": 890,
  "year": 891,
  "AĠ": 892,
  "loveĠ": 893,
  "allĠ": 894,
  "esĠofĠ": 895,
  "lit": 896,
  "le": 897,
  "whereĠ": 898,
  "ĊC": 899,
  "Ġman": 900,
  "star": 901,
  "YetĠ": 902,
  "rep": 903,
  "o'er": 904,
  "ead": 905,
  "litt": 906,
  "car": 907,
  "someĠ": 908,
  "new": 909,
  "iceĠ": 910,
  "letĠ": 911,
  "ern": 912,
  "ryĠ": 913,
  "rong": 914,
  "ĠtheĠw": 915,
  "TH": 916,
  "ect": 917,
  "rem": 918,
  "'erĠ": 919,
  "From": 920,
  "ung": 921,
  "ĊD": 922,
  "hat": 923,
  "IĠs": 924,
  "Sp": 925,
  "'t": 926,
  "ĠnotĠ": 927,
  "ifĠ": 928,
  "ĠthoseĠ": 929,
  "imp": 930,
  "everyĠ": 931,
  "we": 932,
  "i.Ġ": 933,
  "rag": 934,
  "happ": 935,
  "!--": 936,
  "ail": 937,
  "ens": 938,
  "though": 939,
  "mustĠ": 940,
  "form": 941,
  "artĠ": 942,
  "Ġcon": 943,
  "Al": 944,
  "eet": 945,
  "then": 946,
  "ĠwhatĠ": 947,
  "ot": 948,
  "NoĠ": 949,
  "ĠhisĠ": 950,
  "hill": 951,
  "roundĠ": 952,
  "heartĠ": 953,
  "ledĠ": 954,
  "lim": 955,
  "erv": 956,
  "sĠtoĠ": 957,
  "thereĠ": 958,
  "littleĠ": 959,
  "rown": 960,
  "mer": 961,
  "worl": 962,
  "endĠ": 963,
  "ĠweĠ": 964,
  "rain": 965,
  "eld": 966,
  "LikeĠ": 967,
  "EĠ": 968,
  "ring": 969,
  "hild": 970,
  "low": 971,
  "dark": 972,
  "ER": 973,
  "hop": 974,
  "yeĠ": 975,
  "off": 976,
  "ĠĠĠ": 977,
  "oftĠ": 978,
  "eĠandĠ": 979,
  "_Ġ": 980,
  "eĊA": 981,
  "soul": 982,
  "?ĊĊ_": 983,
  ",ĊB": 984,
  "lic": 985,
  "even": 986,
  "./Ġ": 987,
  "az": 988,
  ".]ĊĊ": 989,
  "youĠ": 990,
  "shall": 991,
  "eĊTheĠ": 992,
  "oft": 993,
  "ous": 994,
  "er,Ġ": 995,
  "seem": 996,
  "s;Ċ": 997,
  "OĠ": 998,
  "tic": 999,
  "go": 1000,
  "Ch": 1001,
  "ity": 1002,
  "gain": 1003,
  "deep": 1004,
  "edĠwith": 1005,
  "eas": 1006,
  "tooĠ": 1007,
  "upon": 1008,
  ".ĠĠĠĠĠĠĠĠĠĠĠĠĠĠĠĠ": 1009,
  "hum": 1010,
  "Ġwor": 1011,
  "whichĠ": 1012,
  "out": 1013,
  "En": 1014,
  "tu": 1015,
  "den": 1016,
  ";--": 1017,
  "inĠs": 1018,
  "IĠhaveĠ": 1019,
  "s--": 1020,
  "ĠtheirĠ": 1021,
  "Ġher": 1022,
  "cha": 1023,
  "plea": 1024,
  "stor": 1025,
  "edĠbyĠ": 1026,
  "int": 1027,
  "couldĠ": 1028,
  "eed": 1029,
  "rock": 1030,
  "e-": 1031,
  "ON": 1032,
  "lish": 1033,
  "inĠa": 1034,
  "down": 1035,
  "ank": 1036,
  "oss": 1037,
  "earĠ": 1038,
  ",ĊThatĠ": 1039,
  "aĠp": 1040,
  "spiri": 1041,
  "Lo": 1042,
  "mostĠ": 1043,
  "oud": 1044,
  "ĠwouldĠ": 1045,
  "ym": 1046,
  "nam": 1047,
  "Heaven": 1048,
  "min": 1049,
  "yourĠ": 1050,
  "tor": 1051,
  "!ĊĊ_": 1052,
  "whoseĠ": 1053,
  "af": 1054,
  "vesĠ": 1055,
  "Ġcom": 1056,
  ".ĠI": 1057,
  "fair": 1058,
  "Up": 1059,
  "kind": 1060,
  "AN": 1061,
  "AR": 1062,
  "e!": 1063,
  "been": 1064,
  "ĊFrom": 1065,
  "tri": 1066,
  "vis": 1067,
  "nor": 1068,
  "Ġthought": 1069,
  "astĠ": 1070,
  "bla": 1071,
  "fulĠ": 1072,
  "otherĠ": 1073,
  "inter": 1074,
  "WhatĠ": 1075,
  ".Ġ18": 1076,
  "hour": 1077,
  "ack": 1078,
  "ĠĠĠĠĠ": 1079,
  "ĠtheseĠ": 1080,
  "mon": 1081,
  "aĠf": 1082,
  "aĠd": 1083,
  "theĠw": 1084,
  "again": 1085,
  "cla": 1086,
  "inc": 1087,
  "ss": 1088,
  "land": 1089,
  "bro": 1090,
  "shouldĠ": 1091,
  "shi": 1092,
  "rit": 1093,
  "neverĠ": 1094,
  "sea": 1095,
  "--ĊĊ": 1096,
  "under": 1097,
  "ed,Ċ": 1098,
  "byĠtheĠ": 1099,
  "th,Ġ": 1100,
  "hal": 1101,
  "ĊP": 1102,
  "uc": 1103,
  "lef": 1104,
  "Ġbl": 1105,
  "psĠ": 1106,
  "eneath": 1107,
  "onlyĠ": 1108,
  "ondĠ": 1109,
  "how": 1110,
  "fear": 1111,
  "TheyĠ": 1112,
  "ĊL": 1113,
  "each": 1114,
  "EN": 1115,
  "ĊR": 1116,
  "[_": 1117,
  "onceĠ": 1118,
  "rat": 1119,
  "Nor": 1120,
  "aryĠ": 1121,
  "ableĠ": 1122,
  "Com": 1123,
  "mountain": 1124,
  "aĠm": 1125,
  "NotĠ": 1126,
  "ĠwithĠ": 1127,
  "sĠthatĠ": 1128,
  "OR": 1129,
  "Nat": 1130,
  "eĊOf": 1131,
  "mightĠ": 1132,
  "HisĠ": 1133,
  "s,ĊAndĠ": 1134,
  "mind": 1135,
  "ĠsheĠ": 1136,
  "shad": 1137,
  "17": 1138,
  "ectĠ": 1139,
  "ĠĠĠĠĠĠĠĠĠĠĠĠĠĠ": 1140,
  "Go": 1141,
  "hand": 1142,
  "chang": 1143,
  "ForĠ": 1144,
  "ollow": 1145,
  "veryĠ": 1146,
  "aus": 1147,
  "wil": 1148,
  "ĠbyĠ": 1149,
  ".ĠTheĠ": 1150,
  "joy": 1151,
  "God": 1152,
  "ather": 1153,
  "rais": 1154,
  "lin": 1155,
  "cri": 1156,
  ":--": 1157,
  "ityĠ": 1158,
  "ough": 1159,
  "wat": 1160,
  "sĠofĠtheĠ": 1161,
  "Ġcan": 1162,
  "ty": 1163,
  "ach": 1164,
  "men": 1165,
  "feel": 1166,
  "s.Ċ": 1167,
  "stream": 1168,
  "mur": 1169,
  "ĊOn": 1170,
  "oung": 1171,
  ",ĠasĠ": 1172,
  "comp": 1173,
  "thingĠ": 1174,
  "whileĠ": 1175,
  "inĠhisĠ": 1176,
  "such": 1177,
  "uponĠtheĠ": 1178,
  "ThisĠ": 1179,
  "esĠandĠ": 1180,
  "dist": 1181,
  "ED": 1182,
  "bet": 1183,
  "round": 1184,
  "ĊWhich": 1185,
  ",ĊTh": 1186,
  "whi": 1187,
  "unt": 1188,
  "aid": 1189,
  "sol": 1190,
  "theeĠ": 1191,
  "gent": 1192,
  "tear": 1193,
  "ĠmeĠ": 1194,
  "vain": 1195,
  "IN": 1196,
  "flower": 1197,
  "whenĠ": 1198,
  "lastĠ": 1199,
  "readĠ": 1200,
  "'TisĠ": 1201,
  "gi": 1202,
  "co": 1203,
  "aĠb": 1204,
  "firstĠ": 1205,
  "edĠin": 1206,
  "lam": 1207,
  "thouĠ": 1208,
  "ort": 1209,
  "madeĠ": 1210,
  "'Ġ": 1211,
  "p.Ġ": 1212,
  "aĠc": 1213,
  "esĠtheĠ": 1214,
  "ence": 1215,
  "ĊAsĠ": 1216,
  "Ġsuch": 1217,
  "ed,ĠandĠ": 1218,
  "sil": 1219,
  "rang": 1220,
  "turn": 1221,
  "sid": 1222,
  "sun": 1223,
  "omĠ": 1224,
  "ies": 1225,
  "ingĠtheĠ": 1226,
  "manyĠ": 1227,
  "gri": 1228,
  "ves": 1229,
  "sm": 1230,
  "tain": 1231,
  "voic": 1232,
  "Lor": 1233,
  "Man": 1234,
  "eer": 1235,
  "till": 1236,
  "cour": 1237,
  "ome": 1238,
  "rew": 1239,
  "eĊS": 1240,
  "lad": 1241,
  "AsĠ": 1242,
  ",\"": 1243,
  "ool": 1244,
  "ĠsomeĠ": 1245,
  "power": 1246,
  "alk": 1247,
  "ition": 1248,
  "ess,Ġ": 1249,
  ";ĊTheĠ": 1250,
  "bir": 1251,
  "my": 1252,
  ",ĊToĠ": 1253,
  "br": 1254,
  "thought": 1255,
  "owerĠ": 1256,
  "ath": 1257,
  "ĠforĠ": 1258,
  "ĠwhoĠ": 1259,
  "ingĠw": 1260,
  "near": 1261,
  "ere": 1262,
  "cho": 1263,
  "etc": 1264,
  ",ĠthatĠ": 1265,
  "ĊE": 1266,
  "Ġal": 1267,
  "ouch": 1268,
  "val": 1269,
  "ofĠw": 1270,
  "Ġthrough": 1271,
  ";ĠbutĠ": 1272,
  "'tisĠ": 1273,
  "len": 1274,
  "lingĠ": 1275,
  "stri": 1276,
  "qui": 1277,
  ",ĊWith": 1278,
  "Oh": 1279,
  "'stĠ": 1280,
  "_;Ġ": 1281,
  "right": 1282,
  "tĠofĠ": 1283,
  "orrow": 1284,
  "ness": 1285,
  "theirĠ": 1286,
  "fall": 1287,
  "friend": 1288,
  "ask": 1289,
  "death": 1290,
  "Mar": 1291,
  "mis": 1292,
  "ItĠ": 1293,
  "ta": 1294,
  "sweetĠ": 1295,
  "und": 1296,
  "s.Ġ": 1297,
  "par": 1298,
  "than": 1299,
  "een": 1300,
  "eĊW": 1301,
  "tend": 1302,
  "And,Ġ": 1303,
  "ThereĠ": 1304,
  ",ĊOr": 1305,
  "sure": 1306,
  "hath": 1307,
  "lifeĠ": 1308,
  "loom": 1309,
  "hall": 1310,
  "e?": 1311,
  "thing": 1312,
  "ueĠ": 1313,
  "bra": 1314,
  "ES": 1315,
  "nightĠ": 1316,
  "IĠm": 1317,
  "reat": 1318,
  "eldĠ": 1319,
  "ho": 1320,
  "ĠaĠs": 1321,
  "love": 1322,
  "goodĠ": 1323,
  "timeĠ": 1324,
  "sub": 1325,
  "SheĠ": 1326,
  "ment": 1327,
  "gro": 1328,
  "bel": 1329,
  "on,Ġ": 1330,
  "pur": 1331,
  "sĠareĠ": 1332,
  ".ĊTheĠ": 1333,
  "dream": 1334,
  "ourn": 1335,
  "ree": 1336,
  "Ġthee": 1337,
  "Be": 1338,
  "red": 1339,
  "temp": 1340,
  "teĠ": 1341,
  "wind": 1342,
  "ongĠtheĠ": 1343,
  "OneĠ": 1344,
  "ĠtheeĠ": 1345,
  "o,Ġ": 1346,
  "young": 1347,
  "e.Ġ": 1348,
  "voiceĠ": 1349,
  "fac": 1350,
  "sleep": 1351,
  "s!": 1352,
  ",ĊAsĠ": 1353,
  "leftĠ": 1354,
  "eĊToĠ": 1355,
  "gen": 1356,
  ",ĊD": 1357,
  "Now": 1358,
  "ĊHisĠ": 1359,
  "ĠitĠ": 1360,
  "ander": 1361,
  ":ĊI": 1362,
  "beh": 1363,
  "ientĠ": 1364,
  ".\"ĊĊ": 1365,
  "eyesĠ": 1366,
  "glor": 1367,
  "ult": 1368,
  "Ar": 1369,
  "and,Ġ": 1370,
  ",ĊM": 1371,
  "ress": 1372,
  "iesĠ": 1373,
  "dec": 1374,
  "ay,Ġ": 1375,
  "law": 1376,
  "pal": 1377,
  "tran": 1378,
  "wardĠ": 1379,
  "eeĠ": 1380,
  "ĊFor": 1381,
  "edĠandĠ": 1382,
  "heaven": 1383,
  "step": 1384,
  "eyes": 1385,
  "yĠandĠ": 1386,
  "bu": 1387,
  "tell": 1388,
  "don": 1389,
  "s.ĊĊ": 1390,
  "ĊByĠ": 1391,
  "AL": 1392,
  "Though": 1393,
  "led": 1394,
  "rin": 1395,
  "ix": 1396,
  "ĠtheĠc": 1397,
  "leep": 1398,
  "dear": 1399,
  "aĠw": 1400,
  "By": 1401,
  "e,ĊWh": 1402,
  "lay": 1403,
  "ian": 1404,
  "morn": 1405,
  "war": 1406,
  "’sĠ": 1407,
  "ĠofĠtheĠ": 1408,
  "tionĠ": 1409,
  "iz": 1410,
  "Ear": 1411,
  "emor": 1412,
  "child": 1413,
  "et,Ġ": 1414,
  "SoĠ": 1415,
  "IĠam": 1416,
  "work": 1417,
  "ier": 1418,
  "head": 1419,
  "180": 1420,
  "dom": 1421,
  "thoseĠ": 1422,
  "Ġso": 1423,
  "ĠsoĠ": 1424,
  "ster": 1425,
  "182": 1426,
  "ling": 1427,
  "ĊAĠ": 1428,
  "IĠf": 1429,
  "inf": 1430,
  "bear": 1431,
  "withĠtheĠ": 1432,
  "ram": 1433,
  "pos": 1434,
  "yĠofĠ": 1435,
  "call": 1436,
  "Ġsw": 1437,
  "lor": 1438,
  "reg": 1439,
  "forth": 1440,
  "e,ĊTheĠ": 1441,
  "How": 1442,
  "dayĠ": 1443,
  "ĊWhatĠ": 1444,
  "full": 1445,
  "ĠcouldĠ": 1446,
  "theseĠ": 1447,
  "youth": 1448,
  "onĠhisĠ": 1449,
  "ofĠth": 1450,
  "he": 1451,
  "Jo": 1452,
  "venĠ": 1453,
  "comeĠ": 1454,
  "Ġshall": 1455,
  "raw": 1456,
  "seen": 1457,
  "last": 1458,
  "181": 1459,
  "greatĠ": 1460,
  "THEĠ": 1461,
  "dep": 1462,
  ";ĊButĠ": 1463,
  "beforeĠ": 1464,
  "irĠ": 1465,
  "ci": 1466,
  "away": 1467,
  "himĠ": 1468,
  "word": 1469,
  "smil": 1470,
  ",ĊWhich": 1471,
  "e!Ċ": 1472,
  "pleas": 1473,
  "cur": 1474,
  "forĠtheĠ": 1475,
  "vers": 1476,
  "happyĠ": 1477,
  "ann": 1478,
  "Qu": 1479,
  "eg": 1480,
  "chedĠ": 1481,
  "Ġdo": 1482,
  "tingĠ": 1483,
  ".ĠW": 1484,
  "sec": 1485,
  ".ĊĊ\"": 1486,
  "e,ĠtheĠ": 1487,
  ",ĊO": 1488,
  "ĊThe": 1489,
  "--Ċ": 1490,
  "pain": 1491,
  "doĠ": 1492,
  "hereĠ": 1493,
  "ownĠ": 1494,
  "ĊInĠ": 1495,
  "makeĠ": 1496,
  "breath": 1497,
  "ush": 1498,
  "tĠtheĠ": 1499,
  "run": 1500,
  "e,ĊW": 1501,
  ",ĊIn": 1502,
  "lat": 1503,
  "sĠin": 1504,
  "ĊTo": 1505,
  "rightĠ": 1506,
  "ris": 1507,
  "born": 1508,
  "gon": 1509,
  "iseĠ": 1510,
  "evil": 1511,
  "ĊIsĠ": 1512,
  "ould": 1513,
  "ii.Ġ": 1514,
  "uti": 1515,
  "mov": 1516,
  "ĠĠĠĠĠĠĠĠĠĠ": 1517,
  "eĊI": 1518,
  ",ĊF": 1519,
  "view": 1520,
  "ingĠa": 1521,
  "mar": 1522,
  ",ĊButĠ": 1523,
  "eadĠ": 1524,
  "y'sĠ": 1525,
  "aidĠ": 1526,
  ".ĊĊTheĠ": 1527,
  "isĠtheĠ": 1528,
  "much": 1529,
  "us,Ġ": 1530,
  "Ġdes": 1531,
  "ĠS": 1532,
  "usic": 1533,
  "Con": 1534,
  "green": 1535,
  "Ġper": 1536,
  "eachĠ": 1537,
  "e,ĊA": 1538,
  "earn": 1539,
  "toĠs": 1540,
  "char": 1541,
  "LordĠ": 1542,
  "list": 1543,
  "might": 1544,
  "path": 1545,
  ":ĊAndĠ": 1546,
  "ship": 1547,
  "Spiri": 1548,
  "Ġcl": 1549,
  "ĠshouldĠ": 1550,
  "'ĊĊ": 1551,
  "GodĠ": 1552,
  "er'sĠ": 1553,
  "cont": 1554,
  "irstĠ": 1555,
  "return": 1556,
  "Ed": 1557,
  "less": 1558,
  "elessĠ": 1559,
  "angu": 1560,
  "seeĠ": 1561,
  "twoĠ": 1562,
  "III": 1563,
  "ĠfromĠ": 1564,
  "ĠdidĠ": 1565,
  "eĊOfĠ": 1566,
  "think": 1567,
  "Ex": 1568,
  "atĠtheĠ": 1569,
  "rac": 1570,
  "stand": 1571,
  "ĠwereĠ": 1572,
  "oub": 1573,
  ".ĊĊ_S": 1574,
  "ingĠtoĠ": 1575,
  "ip": 1576,
  "ByĠ": 1577,
  "var": 1578,
  "me,Ġ": 1579,
  "oudĠ": 1580,
  "ĠmayĠ": 1581,
  "moon": 1582,
  "Ġspiri": 1583,
  "To": 1584,
  "cloud": 1585,
  "heardĠ": 1586,
  "Ġthink": 1587,
  "world": 1588,
  "Ġdis": 1589,
  "plac": 1590,
  "eck": 1591,
  ".)": 1592,
  "LetĠ": 1593,
  "MS": 1594,
  "ed--": 1595,
  "US": 1596,
  "ture": 1597,
  "withoutĠ": 1598,
  "Poem": 1599,
  "olyĠ": 1600,
  "Ġthan": 1601,
  "ection": 1602,
  "comm": 1603,
  "limb": 1604,
  "f-": 1605,
  "vir": 1606,
  "es,ĠandĠ": 1607,
  "flow": 1608,
  "tyĠ": 1609,
  "fo": 1610,
  "father": 1611,
  "pre": 1612,
  ".ĊA": 1613,
  "ĊHeĠ": 1614,
  "tun": 1615,
  "ublish": 1616,
  "brightĠ": 1617,
  "pea": 1618,
  "ildĠ": 1619,
  "nowĠ": 1620,
  "faith": 1621,
  "div": 1622,
  "But": 1623,
  "canĠ": 1624,
  "cc": 1625,
  "ĠĠĠĠĠĠĠĠĠĠĠĠ": 1626,
  "ĠmanyĠ": 1627,
  "enĠtheĠ": 1628,
  "ĊWithĠ": 1629,
  "shallĠ": 1630,
  "Ġhum": 1631,
  "ffer": 1632,
  "truth": 1633,
  "lock": 1634,
  ".ĊĊI": 1635,
  "Ġsc": 1636,
  "appear": 1637,
  "roo": 1638,
  "plain": 1639,
  "bar": 1640,
  ".ĊAndĠ": 1641,
  "thusĠ": 1642,
  "e:": 1643,
  "bright": 1644,
  "Her": 1645,
  "ĠC": 1646,
  "rink": 1647,
  "oleĠ": 1648,
  "179": 1649,
  "akesĠ": 1650,
  "toĠbeĠ": 1651,
  "gold": 1652,
  "hor": 1653,
  "part": 1654,
  "speak": 1655,
  "back": 1656,
  "utter": 1657,
  "intoĠ": 1658,
  "ers": 1659,
  "oman": 1660,
  "Ġde": 1661,
  "ĠĠĠĠĠĠĠ": 1662,
  "ali": 1663,
  "ĠinĠ": 1664,
  "atedĠ": 1665,
  "RI": 1666,
  "inceĠ": 1667,
  "ser": 1668,
  "e,ĊS": 1669,
  "ooth": 1670,
  "withĠa": 1671,
  "gentleĠ": 1672,
  "selfĠ": 1673,
  "strong": 1674,
  "yĠtheĠ": 1675,
  "gaz": 1676,
  "hast": 1677,
  "oughtĠ": 1678,
  "calm": 1679,
  "gth": 1680,
  "ĠmustĠ": 1681,
  "ĠthereĠ": 1682,
  "Ġof": 1683,
  "storm": 1684,
  "'ll": 1685,
  "ringĠ": 1686,
  "dead": 1687,
  "Nature": 1688,
  ",Ġ_": 1689,
  "lon": 1690,
  "reeĠ": 1691,
  "anyĠ": 1692,
  "ence,Ġ": 1693,
  "fell": 1694,
  ".ĊI": 1695,
  "swor": 1696,
  "eousĠ": 1697,
  "hon": 1698,
  "rap": 1699,
  "ork": 1700,
  "mad": 1701,
  "giv": 1702,
  "bour": 1703,
  "ia": 1704,
  "st,Ġ": 1705,
  "bur": 1706,
  "ireĠ": 1707,
  "ston": 1708,
  ",ĊP": 1709,
  "bit": 1710,
  "ĊMyĠ": 1711,
  "trem": 1712,
  "ĊG": 1713,
  "vic": 1714,
  ",ĊC": 1715,
  "open": 1716,
  "NorĠ": 1717,
  "opp": 1718,
  "Ġfl": 1719,
  "o'erĠtheĠ": 1720,
  "WhereĠ": 1721,
  "sum": 1722,
  "ThyĠ": 1723,
  "sur": 1724,
  ",ĠandĠtheĠ": 1725,
  "beenĠ": 1726,
  "iltĠ": 1727,
  "never": 1728,
  "ĠB": 1729,
  "follow": 1730,
  "ofĠhisĠ": 1731,
  "asĠtheĠ": 1732,
  "leaveĠ": 1733,
  "bos": 1734,
  ".ĊĊS": 1735,
  "hap": 1736,
  "reas": 1737,
  ".ĊĊ[": 1738,
  "Ġbea": 1739,
  "norĠ": 1740,
  "!ĊAndĠ": 1741,
  "keep": 1742,
  "eredĠ": 1743,
  "(_": 1744,
  "itud": 1745,
  "worldĠ": 1746,
  "eĊIn": 1747,
  "WhoĠ": 1748,
  "ĠwhoseĠ": 1749,
  "hastĠ": 1750,
  "ĠmoreĠ": 1751,
  "giveĠ": 1752,
  ";ĊA": 1753,
  "e;ĊAndĠ": 1754,
  "entsĠ": 1755,
  "noc": 1756,
  "ĠfromĠtheĠ": 1757,
  "himself": 1758,
  "ondon": 1759,
  "beam": 1760,
  "umber": 1761,
  "XX": 1762,
  ",ĠbutĠ": 1763,
  "wa": 1764,
  "rop": 1765,
  ":ĊTheĠ": 1766,
  "wood": 1767,
  "lau": 1768,
  "sĊOf": 1769,
  "ĊThisĠ": 1770,
  "remain": 1771,
  "du": 1772
}
